<unk>	0
َا	-0
َّ	-1
وَ	-2
ُو	-3
▁وَ	-4
نَ	-5
▁ٱ	-6
لَ	-7
ِي	-8
لْ	-9
أَ	-10
ُم	-11
▁م	-12
ـٰ	-13
تَ	-14
ِن	-15
عَ	-16
▁ف	-17
▁أَ	-18
▁ي	-19
رَ	-20
لَّ	-21
ُمْ	-22
مَ	-23
▁ب	-24
هِ	-25
كَ	-26
ا۟	-27
لِ	-28
هُ	-29
▁إ	-30
ِّ	-31
▁يَ	-32
يْ	-33
ًا	-34
▁فَ	-35
ُوا۟	-36
▁عَ	-37
ِى	-38
سَ	-39
قَ	-40
وْ	-41
ُونَ	-42
ـٰ	-43
▁تَ	-44
للَّ	-45
بَ	-46
▁ٱلْ	-47
▁بِ	-48
▁لَ	-49
ّ	-50
ىٰ	-51
مْ	-52
عْ	-53
ِينَ	-54
رْ	-55
ُّ	-56
هَ	-57
هُمْ	-58
▁إِ	-59
حَ	-60
َّا	-61
▁ۚ	-62
مُ	-63
تِ	-64
رِ	-65
▁وَٱ	-66
سْ	-67
نَا	-68
كُمْ	-69
ْ	-70
▁إِن	-71
يَ	-72
لَا	-73
ّَ	-74
تُ	-75
▁ۖ	-76
▁ق	-77
هَا	-78
▁ك	-79
جَ	-80
فَ	-81
دَ	-82
▁مِن	-83
نِ	-84
صَ	-85
▁عَلَ	-86
مَا	-87
َ	-88
خَ	-89
لَّذ	-90
▁مَ	-91
▁ا	-92
هُۥ	-93
▁ٱل	-94
▁أَن	-95
▁يُ	-96
حْ	-97
مِ	-98
بِ	-99
رُ	-100
▁رَ	-101
هُم	-102
▁كَ	-103
▁و	-104
▁بَ	-105
ءَا	-106
▁لِ	-107
▁فِى	-108
شَ	-109
▁ٱللَّ	-110
لَّذِينَ	-111
َ	-112
ةِ	-113
لُ	-114
ٓ	-115
ذَا	-116
ذَ	-117
هِۦ	-118
سِ	-119
تْ	-120
طَ	-121
▁ل	-122
نْ	-123
▁قَ	-124
تَّ	-125
▁ءَا	-126
نُ	-127
كُم	-128
هِمْ	-129
فْ	-130
كْ	-131
ـٔ	-132
بْ	-133
▁إِلَ	-134
▁وَأَ	-135
ءَ	-136
نَّ	-137
ِّن	-138
▁الْ	-139
عِ	-140
ٓ	-141
▁وَلَ	-142
▁مَا	-143
هْ	-144
▁نَ	-145
ُل	-146
دِ	-147
صْ	-148
ُن	-149
فِ	-150
▁أ	-151
ٰ	-152
بِّ	-153
▁حَ	-154
▁خَ	-155
خْ	-156
بُ	-157
إِن	-158
▁سَ	-159
ئِ	-160
غَ	-161
▁مِ	-162
سَّ	-163
▁قَا	-164
▁عَلَيْ	-165
رَّ	-166
ةً	-167
إِ	-168
ضَ	-169
لِي	-170
دْ	-171
مَن	-172
▁فِي	-173
لَّا	-174
أْ	-175
رًا	-176
▁وَتَ	-177
▁لَا	-178
▁مُ	-179
بِي	-180
▁جَ	-181
رِي	-182
حِ	-183
لْأَ	-184
للَّهُ	-185
▁ۗ	-186
سْتَ	-187
▁بِٱ	-188
ةٍ	-189
▁تُ	-190
مِن	-191
ذْ	-192
▁كَا	-193
ضِ	-194
للَّهِ	-195
شْ	-196
ؤْ	-197
ثَ	-198
▁مِنْ	-199
▁شَ	-200
▁إِلَّا	-201
دُ	-202
▁إِنَّ	-203
عُ	-204
ِيَ	-205
لُوا۟	-206
زَ	-207
▁هَ	-208
▁وَلَا	-209
لِكَ	-210
جِ	-211
سُ	-212
كِ	-213
لْمُ	-214
قْ	-215
رُو	-216
هُوَ	-217
رٌ	-218
مٌ	-219
جْ	-220
ةَ	-221
▁وَمَا	-222
ةٌ	-223
يْنَ	-224
قُو	-225
بَا	-226
لَم	-227
▁مِنَ	-228
غْ	-229
خِ	-230
قَا	-231
قِ	-232
كُ	-233
▁ال	-234
صَّ	-235
▁وَيَ	-236
▁ٱلَّذِينَ	-237
رُوا۟	-238
فُ	-239
لُو	-240
رَا	-241
▁قَالَ	-242
قُ	-243
▁عَلَىٰ	-244
▁ٱللَّهِ	-245
▁فَٱ	-246
لُونَ	-247
حُ	-248
ةُ	-249
▁ث	-250
ِّنَ	-251
دِي	-252
▁رَبِّ	-253
رُونَ	-254
▁أَوْ	-255
آء	-256
▁ذَ	-257
لًا	-258
مِي	-259
▁ٱللَّهُ	-260
وْمَ	-261
ٓا۟	-262
▁مِّن	-263
هُمُ	-264
ؤْمِن	-265
▁ٱلْأَ	-266
▁قُ	-267
وَّ	-268
مٍ	-269
تُمْ	-270
ضْ	-271
رْضِ	-272
▁ع	-273
صِ	-274
مًا	-275
نِى	-276
▁وَإِ	-277
▁رَب	-278
يُ	-279
آءَ	-280
▁عَلَى	-281
دُو	-282
ذِ	-283
سُو	-284
نُوا۟	-285
▁فَأَ	-286
▁ت	-287
دَّ	-288
▁يَعْ	-289
▁صَ	-290
▁وَإِن	-291
▁وَتُ	-292
ـٰٓ	-293
▁ٱلْمُ	-294
رُّ	-295
▁لَّ	-296
▁كَانَ	-297
َّ	-298
▁ثُم	-299
جَا	-300
رٍ	-301
لَّذِى	-302
▁مُّ	-303
▁غَ	-304
▁أَمْ	-305
لْحَ	-306
للَّهَ	-307
وَٰ	-308
دًا	-309
كَا	-310
ثْ	-311
▁ءَامَن	-312
لْمَ	-313
ـٰٓ	-314
▁ٱللَّهَ	-315
طِ	-316
▁ش	-317
مَآ	-318
ًّا	-319
▁طَ	-320
ئِكَ	-321
▁وَسَ	-322
قِي	-323
▁بَعْ	-324
▁مَّ	-325
زْ	-326
▁هُوَ	-327
شَّ	-328
كُمُ	-329
تُم	-330
ُ	-331
▁بِهِۦ	-332
▁إِلَىٰ	-333
رَىٰ	-334
لْعَ	-335
ٌّ	-336
سَا	-337
نَآ	-338
▁إِلَيْ	-339
ُو۟	-340
ظَ	-341
تٍ	-342
ِّي	-343
▁تَعْ	-344
▁أُ	-345
حِي	-346
▁كُن	-347
جُ	-348
▁ن	-349
عُو	-350
قَوْ	-351
سَّمَ	-352
نٍ	-353
بًا	-354
▁قُلْ	-355
عَا	-356
▁مَن	-357
يَا	-358
وَا	-359
ءِ	-360
بَرَ	-361
▁فَإِن	-362
صِي	-363
ءٍ	-364
زِ	-365
ىْ	-366
ٍّ	-367
كِي	-368
▁إِلَى	-369
▁عَلَيْهِ	-370
نَّا	-371
لْأَرْضِ	-372
ِنَا	-373
عَلَ	-374
▁عِ	-375
▁لَهُمْ	-376
▁كَفَ	-377
ضُ	-378
لْنَا	-379
لٍ	-380
عُونَ	-381
ُّو	-382
▁أَعْ	-383
كُو	-384
▁فِيهَا	-385
ٰلِكَ	-386
▁كُل	-387
▁ءَامَنُوا۟	-388
مُو	-389
دُونَ	-390
بٌ	-391
فُو	-392
▁نُ	-393
عِي	-394
▁تَصَ	-395
▁وَرَ	-396
▁بِمَا	-397
▁لَهُۥ	-398
دَا	-399
رِينَ	-400
وَّرَ	-401
▁عَذَا	-402
▁بَيْنَ	-403
▁كَانُوا۟	-404
يِّ	-405
قُوا۟	-406
حْمَ	-407
▁عَنْ	-408
ِىَ	-409
دُّ	-410
َايَ	-411
▁قَوْ	-412
حَا	-413
خُ	-414
ِ	-415
▁عِن	-416
▁لِّ	-417
ذَّ	-418
طْ	-419
يْنِ	-420
تِي	-421
ىْءٍ	-422
▁يَوْمَ	-423
لْكَ	-424
▁ٱلْحَ	-425
ؤُ	-426
لْبَ	-427
طُ	-428
زِي	-429
لَمُ	-430
كَّ	-431
ِ	-432
كِتَ	-433
نًا	-434
طَّ	-435
بُو	-436
▁ءَايَ	-437
▁رَبَّ	-438
▁خَلَ	-439
▁وَجَ	-440
ُّ	-441
َّةِ	-442
▁ٱلْمَ	-443
بُوا۟	-444
رَةِ	-445
▁وَمَن	-446
رِّ	-447
لَمْ	-448
وْا۟	-449
ىٰٓ	-450
▁رَّ	-451
يُّ	-452
▁وَيُ	-453
َّ	-454
كِن	-455
وْنَ	-456
▁ٱلْعَ	-457
▁ذ	-458
سِي	-459
ُلُو	-460
لْيَ	-461
دُوا۟	-462
▁وَأَن	-463
صُ	-464
▁عَن	-465
رَٰ	-466
▁إِذَا	-467
َاخِ	-468
▁ثُمَّ	-469
▁بِأَ	-470
▁وَهُوَ	-471
بٍ	-472
هَآ	-473
▁كَفَرُوا۟	-474
خَا	-475
ذِّ	-476
▁لَكُمْ	-477
▁وَعَ	-478
▁قَالُوا۟	-479
زُ	-480
▁أَنَّ	-481
▁وَقَا	-482
هِي	-483
▁أُو۟	-484
▁يَأْ	-485
َ	-486
مَّا	-487
▁ر	-488
▁وَٱل	-489
▁شَىْءٍ	-490
قَد	-491
▁إِذْ	-492
نِي	-493
▁فِ	-494
زَّ	-495
▁وَا	-496
كُونَ	-497
▁خَيْ	-498
ءُ	-499
▁أَرْ	-500
▁أَهْ	-501
عُوا۟	-502
▁وَمَ	-503
▁أَفَ	-504
دٍ	-505
لِهِۦ	-506
لَّهِ	-507
▁كُ	-508
ُّونَ	-509
لْقَ	-510
لَىٰ	-511
▁ٱلنَّا	-512
تِى	-513
▁دَ	-514
▁حَتَّ	-515
▁ٱلسَّمَ	-516
يُّهَا	-517
ظَّ	-518
لٌ	-519
▁هُمْ	-520
▁ٱلَّذِى	-521
نٌ	-522
جُو	-523
▁ضَ	-524
▁رَبُّ	-525
▁سُ	-526
ئْ	-527
ِّنْ	-528
دٌ	-529
شِ	-530
▁عَلَيْهِمْ	-531
طِي	-532
لْحَق	-533
▁وَكَ	-534
▁مَعَ	-535
▁وَلِ	-536
آءِ	-537
قَدْ	-538
لِم	-539
▁مِّنَ	-540
▁مِّنْ	-541
أَيُّهَا	-542
أُ	-543
غْفِ	-544
بَّ	-545
▁يَسْتَ	-546
ـَٔ	-547
ِّ	-548
▁وَنَ	-549
كُل	-550
عَلَّ	-551
زَا	-552
▁فِيهِ	-553
▁ذَٰلِكَ	-554
▁قَبْ	-555
صَا	-556
عًا	-557
ِّى	-558
▁ظَ	-559
شْرِ	-560
سَىٰ	-561
ُ	-562
قُونَ	-563
كَانَ	-564
▁جَا	-565
▁عَلِي	-566
▁فَلَا	-567
▁د	-568
شَا	-569
▁مِنۢ	-570
▁يَتَ	-571
تَا	-572
▁وَمَآ	-573
مَةِ	-574
آئِ	-575
▁وَلَوْ	-576
▁يَن	-577
هِم	-578
▁وَتِ	-579
آءُ	-580
رِى	-581
▁لِل	-582
▁وَٱلْ	-583
ظُ	-584
لَمُو	-585
ًۢ	-586
ُّوا۟	-587
▁فَتَ	-588
مِنَ	-589
هُمَا	-590
▁ٱلصَّ	-591
▁وَإِذَا	-592
ئَ	-593
ظِي	-594
▁بُ	-595
لْنَ	-596
▁مَآ	-597
ىَ	-598
صَرَ	-599
مَّ	-600
▁سَبِي	-601
▁حَتَّىٰ	-602
▁وَٱللَّهُ	-603
▁عَلَيْكُمْ	-604
ثِي	-605
يَّ	-606
رْضَ	-607
اً	-608
وُ	-609
ّي	-610
دُّنْ	-611
▁أَكْ	-612
قًا	-613
كُن	-614
لَّآ	-615
▁وُ	-616
غَيْ	-617
▁مُو	-618
فُونَ	-619
ثُ	-620
قِينَ	-621
لَمُونَ	-622
▁كِ	-623
دِينَ	-624
▁يَوْ	-625
▁كُلِّ	-626
فَّ	-627
قَّ	-628
ًۢا	-629
▁رُ	-630
▁أَنْ	-631
▁يُؤْمِن	-632
ظْ	-633
نُو	-634
فَا	-635
لْفَ	-636
دُّنْيَا	-637
فِي	-638
▁نَفْ	-639
▁ٱلْأَرْضِ	-640
ّْ	-641
عْمَ	-642
هُۥٓ	-643
▁وَبَ	-644
ُونِ	-645
▁وَمِن	-646
غُ	-647
لِّ	-648
ُمَ	-649
▁الْمُ	-650
ّو	-651
قَوْمِ	-652
▁س	-653
دِى	-654
سَرَ	-655
وَىٰ	-656
▁لِيَ	-657
▁وَءَا	-658
▁يَقُو	-659
دَىٰ	-660
▁نَّ	-661
يِّنَ	-662
▁غَيْ	-663
▁فَلَ	-664
بُّ	-665
▁يُو	-666
▁أَيْ	-667
▁تَسَ	-668
صَوَّرَ	-669
وٰ	-670
ئِن	-671
بُونَ	-672
▁أَحَ	-673
▁ثَ	-674
صو	-675
لِمَ	-676
▁رِ	-677
حْسَ	-678
سَّرَ	-679
صْبَرَ	-680
ًى	-681
▁قُلُو	-682
تُو	-683
صَّرَ	-684
لْحَقِّ	-685
▁لِلَّهِ	-686
لِح	-687
▁۞	-688
▁إِلَّآ	-689
تِنَا	-690
سْبَرَ	-691
▁جَآءَ	-692
ِ	-693
فًا	-694
▁وَهُمْ	-695
▁وَقَالَ	-696
ؤْمِنِينَ	-697
طَا	-698
جَّ	-699
▁حِ	-700
تِهِۦ	-701
مُوا۟	-702
▁تَأْ	-703
ّا	-704
سَوَّرَ	-705
ذُ	-706
أَن	-707
وَٰتِ	-708
▁أَصْ	-709
▁إِنْ	-710
▁كَيْ	-711
▁لَوْ	-712
وِ	-713
لَيْ	-714
▁فَلَم	-715
▁تَصَرُّ	-716
▁نِ	-717
▁عِند	-718
أُو۟	-719
▁عَا	-720
▁مَّا	-721
ضَّ	-722
رَةٌ	-723
▁فَإِ	-724
▁لَعَلَّ	-725
▁حُ	-726
▁بَلْ	-727
▁تَسَرُّ	-728
يُو	-729
▁أُم	-730
تُوا۟	-731
▁زَ	-732
▁شُ	-733
وَلَّ	-734
▁لَمْ	-735
مَلُونَ	-736
َاخِرَةِ	-737
تَىٰ	-738
لْكِتَ	-739
ذَآ	-740
ٰ	-741
▁تَسِ	-742
▁ٱلرَّ	-743
▁تَحْ	-744
▁يَسْ	-745
▁يَفْ	-746
▁ٱلسَّ	-747
▁أُو	-748
▁يَخْ	-749
وا۟	-750
ِيلَ	-751
هُنَّ	-752
▁خَلَقَ	-753
خْرِ	-754
تَّبِ	-755
▁لَّا	-756
▁وَقَ	-757
▁وَكَانَ	-758
▁ج	-759
حْنُ	-760
يْنَا	-761
▁أَلْ	-762
▁بِٱلْ	-763
عٌ	-764
دِّ	-765
رَكَ	-766
فِى	-767
▁كَذَ	-768
▁ٱلْبَ	-769
ذُو	-770
▁يَرْ	-771
هِن	-772
▁عُ	-773
رْعَ	-774
▁شَيْ	-775
▁يَحْ	-776
لِى	-777
▁تِ	-778
▁نَا	-779
لُّ	-780
ضٍ	-781
▁الْأَ	-782
▁رَبِّى	-783
هُو	-784
رَةً	-785
▁فَسَ	-786
▁هُمُ	-787
▁ٱلشَّ	-788
▁سِ	-789
َاسِ	-790
▁ٱلْكِتَ	-791
▁يَهْ	-792
لِمِينَ	-793
▁رَبِّكَ	-794
رْيَ	-795
قِيَ	-796
▁لِي	-797
▁فَيَ	-798
▁لَكَ	-799
عْتَ	-800
▁رَسُو	-801
▁إِلَيْهِ	-802
▁عَنِ	-803
▁وَٱلَّذِينَ	-804
▁مَنْ	-805
▁أَلَمْ	-806
▁خَيْرٌ	-807
لَهُۥ	-808
تَّقُوا۟	-809
▁كَذَّ	-810
▁ٱلْكَ	-811
عَلْنَا	-812
▁عَذَابٌ	-813
ذٍ	-814
▁أَكْثَ	-815
▁هُ	-816
▁أُن	-817
▁أَسْ	-818
َّ	-819
شُ	-820
▁وِ	-821
تَّخَ	-822
لَّيْ	-823
▁عِبَا	-824
▁لَكُم	-825
ثِ	-826
جِي	-827
▁مِّ	-828
لُوٓا۟	-829
▁فَإِنَّ	-830
▁إِلَيْكَ	-831
بِى	-832
لِحَ	-833
▁دُو	-834
▁نُو	-835
مُونَ	-836
▁فَمَا	-837
شِّ	-838
قُرْ	-839
نْهَ	-840
▁قَدْ	-841
▁الْمَ	-842
سٍ	-843
ضِي	-844
بَعَ	-845
▁ٱلنَّ	-846
مِلُوا۟	-847
▁صِ	-848
عْدِ	-849
▁جَهَ	-850
فِرِينَ	-851
▁كُنتُمْ	-852
قٍ	-853
▁يُن	-854
لِينَ	-855
رُهُمْ	-856
▁عِندَ	-857
▁عَلِيمٌ	-858
تٌ	-859
ضَا	-860
عْبُ	-861
يْطَ	-862
▁رَّبِّ	-863
ظِ	-864
بَتْ	-865
ذْكُ	-866
صْتَ	-867
▁يَشْ	-868
ِ	-869
لْجَ	-870
▁يَكْ	-871
▁عَظِي	-872
▁غَفُو	-873
▁بِٱللَّهِ	-874
وِي	-875
َّةٍ	-876
شَآءُ	-877
▁لَهُم	-878
▁وَإِذْ	-879
▁أَرْسَ	-880
▁أُو۟لَ	-881
▁وَرَسُو	-882
هُن	-883
قُولُ	-884
▁وَإِنَّ	-885
▁إِنَّهُۥ	-886
▁مِنْهُمْ	-887
لَآ	-888
ئِذٍ	-889
ذِكْ	-890
سَّا	-891
لَّتِى	-892
▁كُلَّ	-893
▁يَعْلَمُ	-894
▁ۙ	-895
ذِي	-896
فُوا۟	-897
▁دُونِ	-898
▁فَإِذَا	-899
ُمُ	-900
فْسِ	-901
▁كُنت	-902
▁مُوسَىٰ	-903
▁خُ	-904
▁أَنت	-905
▁أَنف	-906
▁أَلِي	-907
▁وَمِنْ	-908
لِيَ	-909
هِىَ	-910
يْتَ	-911
فٍ	-912
لْخَ	-913
يْسَ	-914
تَّخِ	-915
رَبِّ	-916
▁تَرَ	-917
▁كِتَ	-918
▁هَلْ	-919
▁بَعْدَ	-920
▁إِسْ	-921
▁أَنفُ	-922
فٌ	-923
حُو	-924
▁لِيُ	-925
▁ٱلْجَ	-926
▁أَجْ	-927
لَهُمْ	-928
لِهِمْ	-929
▁ءَاتَ	-930
لْأَرْضَ	-931
▁مِنْهَا	-932
▁يُؤْمِنُونَ	-933
كُلِّ	-934
َ	-935
▁	-936
ِ	-937
ْ	-938
ُ	-939
ل	-940
و	-941
ن	-942
م	-943
ا	-944
ّ	-945
ي	-946
ه	-947
ر	-948
ت	-949
ٱ	-950
ب	-951
ك	-952
ع	-953
ٰ	-954
ف	-955
أ	-956
ق	-957
س	-958
د	-959
ـ	-960
ى	-961
	-962
ح	-963
ذ	-964
إ	-965
	-966
ً	-967
۟	-968
ج	-969
ص	-970
ة	-971
ٍ	-972
ٓ	-973
ء	-974
خ	-975
ٌ	-976
ش	-977
	-978
ط	-979
	-980
ض	-981
آ	-982
	-983
	-984
ز	-985
	-986
	-987
ۚ	-988
	-989
ث	-990
ۖ	-991
غ	-992
ۥ	-993
	-994
ئ	-995
ظ	-996
ۦ	-997
ٔ	-998
ؤ	-999
ۢ	-1000
ۗ	-1001
	-1002
	-1003
	-1004
	-1005
ۭ	-1006
۞	-1007
	-1008
۠	-1009
ۙ	-1010
ۧ	-1011
	-1012
ۘ	-1013
۩	-1014
ۛ	-1015
ۜ	-1016
	-1017
ۣ	-1018
ۨ	-1019
۪	-1020
۫	-1021
۬	-1022
