##َا
##َّ
##وَ
##ُو
وَ
##نَ
ٱ
##لَ
##ِي
##لْ
##أَ
##ُم
م
##ـٰ
##تَ
##ِن
##عَ
ف
أَ
ي
##رَ
##لَّ
##ُمْ
##مَ
ب
##هِ
##كَ
##ا۟
##لِ
##هُ
إ
##ِّ
يَ
##يْ
##ًا
فَ
##ُوا۟
عَ
##ِى
##سَ
##قَ
##وْ
##ُونَ
##ـٰ
تَ
##للَّ
##بَ
ٱلْ
بِ
لَ
##ّ
##ىٰ
##مْ
##عْ
##ِينَ
##رْ
##ُّ
##هَ
##هُمْ
إِ
##حَ
##َّا
ۚ
##مُ
##تِ
##رِ
وَٱ
##سْ
##نَا
##كُمْ
##ْ
إِن
##يَ
##لَا
##ّَ
##تُ
ۖ
ق
##هَا
ك
##جَ
##فَ
##دَ
مِن
##نِ
##صَ
عَلَ
##مَا
##َ
##خَ
##لَّذ
مَ
ا
##هُۥ
ٱل
أَن
يُ
##حْ
##مِ
##بِ
##رُ
رَ
##هُم
كَ
و
بَ
##ءَا
لِ
فِى
##شَ
ٱللَّ
##لَّذِينَ
##َ
##ةِ
##لُ
##ٓ
##ذَا
##ذَ
##هِۦ
##سِ
##تْ
##طَ
ل
##نْ
قَ
##تَّ
ءَا
##نُ
##كُم
##هِمْ
##فْ
##كْ
##ـٔ
##بْ
إِلَ
وَأَ
##ءَ
##نَّ
##ِّن
الْ
##عِ
##ٓ
وَلَ
مَا
##هْ
نَ
##ُل
##دِ
##صْ
##ُن
##فِ
أ
##ٰ
##بِّ
حَ
خَ
##خْ
##بُ
##إِن
سَ
##ئِ
##غَ
مِ
##سَّ
قَا
عَلَيْ
##رَّ
##ةً
##إِ
##ضَ
##لِي
##دْ
##مَن
فِي
##لَّا
##أْ
##رًا
وَتَ
لَا
مُ
##بِي
جَ
##رِي
##حِ
##لْأَ
##للَّهُ
ۗ
##سْتَ
بِٱ
##ةٍ
تُ
##مِن
##ذْ
كَا
##ضِ
##للَّهِ
##شْ
##ؤْ
##ثَ
مِنْ
شَ
إِلَّا
##دُ
إِنَّ
##عُ
##ِيَ
##لُوا۟
##زَ
هَ
وَلَا
##لِكَ
##جِ
##سُ
##كِ
##لْمُ
##قْ
##رُو
##هُوَ
##رٌ
##مٌ
##جْ
##ةَ
وَمَا
##ةٌ
##يْنَ
##قُو
##بَا
##لَم
مِنَ
##غْ
##خِ
##قَا
##قِ
##كُ
ال
##صَّ
وَيَ
ٱلَّذِينَ
##رُوا۟
##فُ
##لُو
##رَا
قَالَ
##قُ
عَلَىٰ
ٱللَّهِ
فَٱ
##لُونَ
##حُ
##ةُ
ث
##ِّنَ
##دِي
رَبِّ
##رُونَ
أَوْ
##آء
ذَ
##لًا
##مِي
ٱللَّهُ
##وْمَ
##ٓا۟
مِّن
##هُمُ
##ؤْمِن
ٱلْأَ
قُ
##وَّ
##مٍ
##تُمْ
##ضْ
##رْضِ
ع
##صِ
##مًا
##نِى
وَإِ
رَب
##يُ
##آءَ
عَلَى
##دُو
##ذِ
##سُو
##نُوا۟
فَأَ
ت
##دَّ
يَعْ
صَ
وَإِن
وَتُ
##ـٰٓ
ٱلْمُ
##رُّ
لَّ
كَانَ
##َّ
ثُم
##جَا
##رٍ
##لَّذِى
مُّ
غَ
أَمْ
##لْحَ
##للَّهَ
##وَٰ
##دًا
##كَا
##ثْ
ءَامَن
##لْمَ
##ـٰٓ
ٱللَّهَ
##طِ
ش
##مَآ
##ًّا
طَ
##ئِكَ
وَسَ
##قِي
بَعْ
مَّ
##زْ
هُوَ
##شَّ
##كُمُ
##تُم
##ُ
بِهِۦ
إِلَىٰ
##رَىٰ
##لْعَ
##ٌّ
##سَا
##نَآ
إِلَيْ
##ُو۟
##ظَ
##تٍ
##ِّي
تَعْ
أُ
##حِي
كُن
##جُ
ن
##عُو
##قَوْ
##سَّمَ
##نٍ
##بًا
قُلْ
##عَا
مَن
##يَا
##وَا
##ءِ
##بَرَ
فَإِن
##صِي
##ءٍ
##زِ
##ىْ
##ٍّ
##كِي
إِلَى
عَلَيْهِ
##نَّا
##لْأَرْضِ
##ِنَا
##عَلَ
عِ
لَهُمْ
كَفَ
##ضُ
##لْنَا
##لٍ
##عُونَ
##ُّو
أَعْ
##كُو
فِيهَا
##ٰلِكَ
كُل
ءَامَنُوا۟
##مُو
##دُونَ
##بٌ
##فُو
نُ
##عِي
تَصَ
وَرَ
بِمَا
لَهُۥ
##دَا
##رِينَ
##وَّرَ
عَذَا
بَيْنَ
كَانُوا۟
##يِّ
##قُوا۟
##حْمَ
عَنْ
##ِىَ
##دُّ
##َايَ
قَوْ
##حَا
##خُ
##ِ
عِن
لِّ
##ذَّ
##طْ
##يْنِ
##تِي
##ىْءٍ
يَوْمَ
##لْكَ
ٱلْحَ
##ؤُ
##لْبَ
##طُ
##زِي
##لَمُ
##كَّ
##ِ
##كِتَ
##نًا
##طَّ
##بُو
ءَايَ
رَبَّ
خَلَ
وَجَ
##ُّ
##َّةِ
ٱلْمَ
##بُوا۟
##رَةِ
وَمَن
##رِّ
##لَمْ
##وْا۟
##ىٰٓ
رَّ
##يُّ
وَيُ
##َّ
##كِن
##وْنَ
ٱلْعَ
ذ
##سِي
##ُلُو
##لْيَ
##دُوا۟
وَأَن
##صُ
عَن
##رَٰ
إِذَا
##َاخِ
ثُمَّ
بِأَ
وَهُوَ
##بٍ
##هَآ
كَفَرُوا۟
##خَا
##ذِّ
لَكُمْ
وَعَ
قَالُوا۟
##زُ
أَنَّ
وَقَا
##هِي
أُو۟
يَأْ
##َ
##مَّا
ر
وَٱل
شَىْءٍ
##قَد
إِذْ
##نِي
فِ
##زَّ
وَا
##كُونَ
خَيْ
##ءُ
أَرْ
أَهْ
##عُوا۟
وَمَ
أَفَ
##دٍ
##لِهِۦ
##لَّهِ
كُ
##ُّونَ
##لْقَ
##لَىٰ
ٱلنَّا
##تِى
دَ
حَتَّ
ٱلسَّمَ
##يُّهَا
##ظَّ
##لٌ
هُمْ
ٱلَّذِى
##نٌ
##جُو
ضَ
رَبُّ
سُ
##ئْ
##ِّنْ
##دٌ
##شِ
عَلَيْهِمْ
##طِي
##لْحَق
وَكَ
مَعَ
وَلِ
##آءِ
##قَدْ
##لِم
مِّنَ
مِّنْ
##أَيُّهَا
##أُ
##غْفِ
##بَّ
يَسْتَ
##ـَٔ
##ِّ
وَنَ
##كُل
##عَلَّ
##زَا
فِيهِ
ذَٰلِكَ
قَبْ
##صَا
##عًا
##ِّى
ظَ
##شْرِ
##سَىٰ
##ُ
##قُونَ
##كَانَ
جَا
عَلِي
فَلَا
د
##شَا
مِنۢ
يَتَ
##تَا
وَمَآ
##مَةِ
##آئِ
وَلَوْ
يَن
##هِم
وَتِ
##آءُ
##رِى
لِل
وَٱلْ
##ظُ
##لَمُو
##ًۢ
##ُّوا۟
فَتَ
##مِنَ
##هُمَا
ٱلصَّ
وَإِذَا
##ئَ
##ظِي
بُ
##لْنَ
مَآ
##ىَ
##صَرَ
##مَّ
سَبِي
حَتَّىٰ
وَٱللَّهُ
عَلَيْكُمْ
##ثِي
##يَّ
##رْضَ
##اً
##وُ
##ّي
##دُّنْ
أَكْ
##قًا
##كُن
##لَّآ
وُ
##غَيْ
مُو
##فُونَ
##ثُ
##قِينَ
##لَمُونَ
كِ
##دِينَ
يَوْ
كُلِّ
##فَّ
##قَّ
##ًۢا
رُ
أَنْ
يُؤْمِن
##ظْ
##نُو
##فَا
##لْفَ
##دُّنْيَا
##فِي
نَفْ
ٱلْأَرْضِ
##ّْ
##عْمَ
##هُۥٓ
وَبَ
##ُونِ
وَمِن
##غُ
##لِّ
##ُمَ
الْمُ
##ّو
##قَوْمِ
س
##دِى
##سَرَ
##وَىٰ
لِيَ
وَءَا
يَقُو
##دَىٰ
نَّ
##يِّنَ
غَيْ
فَلَ
##بُّ
يُو
أَيْ
تَسَ
##صَوَّرَ
##وٰ
##ئِن
##بُونَ
أَحَ
ثَ
##صو
##لِمَ
رِ
##حْسَ
##سَّرَ
##صْبَرَ
##ًى
قُلُو
##تُو
##صَّرَ
##لْحَقِّ
لِلَّهِ
##لِح
۞
إِلَّآ
##تِنَا
##سْبَرَ
جَآءَ
##ِ
##فًا
وَهُمْ
وَقَالَ
##ؤْمِنِينَ
##طَا
##جَّ
حِ
##تِهِۦ
##مُوا۟
تَأْ
##ّا
##سَوَّرَ
##ذُ
##أَن
##وَٰتِ
أَصْ
إِنْ
كَيْ
لَوْ
##وِ
##لَيْ
فَلَم
تَصَرُّ
نِ
عِند
##أُو۟
عَا
مَّا
##ضَّ
##رَةٌ
فَإِ
لَعَلَّ
حُ
بَلْ
تَسَرُّ
##يُو
أُم
##تُوا۟
زَ
شُ
##وَلَّ
لَمْ
##مَلُونَ
##َاخِرَةِ
##تَىٰ
##لْكِتَ
##ذَآ
##ٰ
تَسِ
ٱلرَّ
تَحْ
يَسْ
يَفْ
ٱلسَّ
أُو
يَخْ
##وا۟
##ِيلَ
##هُنَّ
خَلَقَ
##خْرِ
##تَّبِ
لَّا
وَقَ
وَكَانَ
ج
##حْنُ
##يْنَا
أَلْ
بِٱلْ
##عٌ
##دِّ
##رَكَ
##فِى
كَذَ
ٱلْبَ
##ذُو
يَرْ
##هِن
عُ
##رْعَ
شَيْ
يَحْ
##لِى
تِ
نَا
##لُّ
##ضٍ
الْأَ
رَبِّى
##هُو
##رَةً
فَسَ
هُمُ
ٱلشَّ
سِ
##َاسِ
ٱلْكِتَ
يَهْ
##لِمِينَ
رَبِّكَ
##رْيَ
##قِيَ
لِي
فَيَ
لَكَ
##عْتَ
رَسُو
إِلَيْهِ
عَنِ
وَٱلَّذِينَ
مَنْ
أَلَمْ
خَيْرٌ
##لَهُۥ
##تَّقُوا۟
كَذَّ
ٱلْكَ
##عَلْنَا
عَذَابٌ
##ذٍ
أَكْثَ
هُ
أُن
أَسْ
##َّ
##شُ
وِ
##تَّخَ
##لَّيْ
عِبَا
لَكُم
##ثِ
##جِي
مِّ
##لُوٓا۟
فَإِنَّ
إِلَيْكَ
##بِى
##لِحَ
دُو
نُو
##مُونَ
فَمَا
##شِّ
##قُرْ
##نْهَ
قَدْ
الْمَ
##سٍ
##ضِي
##بَعَ
ٱلنَّ
##مِلُوا۟
صِ
##عْدِ
جَهَ
##فِرِينَ
كُنتُمْ
##قٍ
يُن
##لِينَ
##رُهُمْ
عِندَ
عَلِيمٌ
##تٌ
##ضَا
##عْبُ
##يْطَ
رَّبِّ
##ظِ
##بَتْ
##ذْكُ
##صْتَ
يَشْ
##ِ
##لْجَ
يَكْ
عَظِي
غَفُو
بِٱللَّهِ
##وِي
##َّةٍ
##شَآءُ
لَهُم
وَإِذْ
أَرْسَ
أُو۟لَ
وَرَسُو
##هُن
##قُولُ
وَإِنَّ
إِنَّهُۥ
مِنْهُمْ
##لَآ
##ئِذٍ
##ذِكْ
##سَّا
##لَّتِى
كُلَّ
يَعْلَمُ
ۙ
##ذِي
##فُوا۟
دُونِ
فَإِذَا
##ُمُ
##فْسِ
كُنت
مُوسَىٰ
خُ
أَنت
أَنف
أَلِي
وَمِنْ
##لِيَ
##هِىَ
##يْتَ
##فٍ
##لْخَ
##يْسَ
##تَّخِ
##رَبِّ
تَرَ
كِتَ
هَلْ
بَعْدَ
إِسْ
أَنفُ
##فٌ
##حُو
لِيُ
ٱلْجَ
أَجْ
##لَهُمْ
##لِهِمْ
ءَاتَ
##لْأَرْضَ
مِنْهَا
يُؤْمِنُونَ
##كُلِّ
##َ
▁
##ِ
##ْ
##ُ
##ل
##و
##ن
##م
##ا
##ّ
##ي
##ه
##ر
##ت
##ٱ
##ب
##ك
##ع
##ٰ
##ف
##أ
##ق
##س
##د
##ـ
##ى
##
##ح
##ذ
##إ
##
##ً
##۟
##ج
##ص
##ة
##ٍ
##ٓ
##ء
##خ
##ٌ
##ش
##
##ط
##
##ض
##آ
##
##
##ز
##
##
##ۚ
##
##ث
##ۖ
##غ
##ۥ
##
##ئ
##ظ
##ۦ
##ٔ
##ؤ
##ۢ
##ۗ
##
##
##
##
##ۭ
##۞
##
##۠
##ۙ
##ۧ
##
##ۘ
##۩
##ۛ
##ۜ
##
##ۣ
##ۨ
##۪
##۫
##۬
