<unk>	0
َّ	-0
َا	-1
ٱل	-2
وَ	-3
نَ	-4
ُو	-5
▁ٱل	-6
▁وَ	-7
لَ	-8
ِي	-9
أَ	-10
ُم	-11
▁م	-12
ِن	-13
ـٰ	-14
عَ	-15
▁ف	-16
يَ	-17
▁أَ	-18
تَ	-19
لَّ	-20
▁ٱلْ	-21
ُمْ	-22
مَ	-23
كَ	-24
رَ	-25
هِ	-26
▁إ	-27
▁ب	-28
ا۟	-29
هُ	-30
▁يَ	-31
لِ	-32
ُونَ	-33
▁فَ	-34
ِّ	-35
يْ	-36
ًا	-37
ُوا۟	-38
▁عَ	-39
ِينَ	-40
ِى	-41
قَ	-42
وْ	-43
▁بِ	-44
▁لَ	-45
ىٰ	-46
▁ٱللَّ	-47
سَ	-48
هُمْ	-49
▁إِ	-50
عْ	-51
مْ	-52
لْ	-53
نَّ	-54
▁ۚ	-55
هَ	-56
بَ	-57
رْ	-58
▁تَ	-59
حَ	-60
ِنَّ	-61
▁ۖ	-62
ُّ	-63
كُمْ	-64
لَا	-65
مُ	-66
نَا	-67
جَ	-68
يُ	-69
▁مِن	-70
▁ك	-71
▁عَلَ	-72
رِ	-73
هَا	-74
▁ق	-75
سْ	-76
َّذ	-77
▁وَٱل	-78
دَ	-79
تِ	-80
فَ	-81
▁إِنَّ	-82
هُۥ	-83
آء	-84
مَا	-85
▁يُ	-86
▁فِى	-87
▁مَ	-88
خَ	-89
تُ	-90
▁بَ	-91
▁رَ	-92
بْ	-93
نِ	-94
▁كَ	-95
▁ٱلَّذ	-96
ءَا	-97
شَ	-98
حْ	-99
هُم	-100
ذَا	-101
▁قَ	-102
▁أَن	-103
دْ	-104
بِ	-105
هِۦ	-106
رُ	-107
مِ	-108
ذَ	-109
▁ءَا	-110
▁لِ	-111
َّا	-112
▁ٱللَّهِ	-113
▁وَلَ	-114
▁ٱلَّذِينَ	-115
لُ	-116
هِمْ	-117
▁إِلَ	-118
ِّن	-119
▁ٱ	-120
لَّا	-121
ـٔ	-122
▁رَب	-123
▁وَأَ	-124
▁مَا	-125
كُم	-126
تَّ	-127
سِ	-128
▁قَا	-129
▁مِّن	-130
▁ٱللَّهُ	-131
▁وَإ	-132
ُل	-133
▁جَ	-134
رَّ	-135
▁عَلَيْ	-136
مَن	-137
▁سَ	-138
▁خَ	-139
تْ	-140
جْ	-141
نُ	-142
▁ٱلْأَ	-143
▁نَ	-144
فْ	-145
كْ	-146
َـٰ	-147
▁حَ	-148
▁لَا	-149
لِي	-150
▁كَا	-151
▁وَٱلْ	-152
فِ	-153
دِ	-154
▁بِٱل	-155
▁ٱللَّهَ	-156
ُن	-157
▁وَلَا	-158
ئِ	-159
▁شَ	-160
رًا	-161
آءَ	-162
هْ	-163
ُوٓ	-164
▁أ	-165
بُ	-166
▁مِ	-167
▁إِلَّا	-168
▁ۗ	-169
عِ	-170
ـٰٓ	-171
▁ٱلْمُ	-172
سَّ	-173
غَ	-174
نَّا	-175
مِن	-176
نْ	-177
▁تُ	-178
خْ	-179
▁وَمَا	-180
ٰلِ	-181
قْ	-182
رْض	-183
لُوا۟	-184
رُونَ	-185
ُوٓا۟	-186
ةِ	-187
سْتَ	-188
ؤْ	-189
لُونَ	-190
ةً	-191
▁إِن	-192
هُوَ	-193
بِي	-194
أْ	-195
زَ	-196
ذْ	-197
ذَٰلِ	-198
▁مِنْ	-199
تُمْ	-200
▁ٱلسَّ	-201
مٌ	-202
لَم	-203
▁مُّ	-204
▁هَ	-205
▁قَالَ	-206
▁فِي	-207
▁لَّ	-208
▁ث	-209
رٌ	-210
دُ	-211
وَٰ	-212
ُلْ	-213
▁عَلَىٰ	-214
ذَٰلِكَ	-215
صَ	-216
▁رَبِّ	-217
شْ	-218
ُمَّ	-219
▁مِنَ	-220
يْنَ	-221
رُوا۟	-222
كِ	-223
▁مَّ	-224
صْ	-225
لِّ	-226
▁مِّ	-227
حِ	-228
▁وَيَ	-229
عُ	-230
جِ	-231
سُ	-232
وْمَ	-233
▁وَٱ	-234
ةٍ	-235
كُ	-236
فُ	-237
ؤْمِن	-238
▁مُ	-239
قُو	-240
▁ٱلْعَ	-241
ضَ	-242
خِ	-243
▁ٱلْحَ	-244
▁بِٱلْ	-245
غْ	-246
قَا	-247
ةٌ	-248
▁فَإ	-249
رْضِ	-250
▁كَانَ	-251
ةَ	-252
طَ	-253
▁ثُمَّ	-254
▁يَعْ	-255
لًا	-256
رِي	-257
هُمُ	-258
▁وَإِ	-259
نُوا۟	-260
مٍ	-261
▁أَوْ	-262
بِّ	-263
▁بَعْ	-264
▁فَأَ	-265
مًا	-266
▁ٱلْمَ	-267
▁لِّ	-268
ذِ	-269
َّـٰ	-270
ىٰٓ	-271
بَا	-272
دِي	-273
قِ	-274
▁فَٱ	-275
▁ٱلسَّمَ	-276
مَّا	-277
لَّهِ	-278
ثَ	-279
▁بِهِۦ	-280
نِى	-281
قُ	-282
▁ٱلنَّا	-283
دُو	-284
▁رَّ	-285
▁أَمْ	-286
مَآ	-287
ئِكَ	-288
▁ذَٰلِكَ	-289
▁مِّنَ	-290
رِينَ	-291
▁ٱلَّذِى	-292
قَدْ	-293
دًا	-294
▁مِّنْ	-295
▁ع	-296
سُو	-297
▁هُوَ	-298
آءِ	-299
▁ٱلص	-300
▁ءَامَن	-301
▁بِمَا	-302
ُو۟	-303
▁عَلَى	-304
يِّ	-305
▁قُلْ	-306
دُونَ	-307
▁إِلَيْ	-308
تُم	-309
▁تَعْ	-310
ًّا	-311
▁قَبْ	-312
▁كُن	-313
▁غَ	-314
ةُ	-315
مِي	-316
قِي	-317
عُونَ	-318
قَوْ	-319
لَّهُ	-320
▁مَن	-321
رٍ	-322
رَٰ	-323
▁وَٱللَّهُ	-324
▁وَمَن	-325
▁كُل	-326
ضْ	-327
صِ	-328
نَآ	-329
▁لَهُمْ	-330
▁عَلَيْهِ	-331
▁أَنَّ	-332
▁ٱلْأَرْضِ	-333
حُ	-334
▁كَفَ	-335
دَّ	-336
كُمُ	-337
ثْ	-338
▁كَانُوا۟	-339
▁فِيهَا	-340
كَا	-341
ِّى	-342
ىْ	-343
▁يَوْمَ	-344
بًا	-345
▁إِلَىٰ	-346
▁وَٱلْأَ	-347
آءُ	-348
رَا	-349
▁قَوْ	-350
▁عَذَا	-351
ُو۟لَ	-352
▁ءَامَنُوا۟	-353
▁لَهُۥ	-354
▁وَرَ	-355
نٍ	-356
رَىٰ	-357
حِي	-358
ءٍ	-359
َايَ	-360
لِم	-361
صِي	-362
عَلَ	-363
بٌ	-364
وَٰتِ	-365
زْ	-366
ِّي	-367
▁بَيْنَ	-368
لْنَا	-369
َّذِينَ	-370
َّيْ	-371
قُوا۟	-372
▁أَعْ	-373
▁ٱلد	-374
▁جَآءَ	-375
حْمَ	-376
زِ	-377
▁شَىْ	-378
▁وَجَ	-379
▁كُ	-380
ِنَا	-381
▁رَبَّ	-382
▁ظ	-383
▁عِ	-384
▁ءَايَ	-385
▁عِن	-386
ِىَ	-387
▁وَتَ	-388
تٍ	-389
لَمُونَ	-390
كِتَ	-391
▁وَإِن	-392
▁شَىْءٍ	-393
وٰ	-394
▁قَالُوا۟	-395
▁عَنْ	-396
▁وَهُوَ	-397
زِي	-398
▁مَّا	-399
▁خَلَ	-400
▁وَإِنَّ	-401
▁ٱلرَّ	-402
لَمُ	-403
ذِّ	-404
لٍ	-405
جُ	-406
لَمْ	-407
▁إِذَا	-408
ذَّ	-409
قِينَ	-410
آئِ	-411
▁كَفَرُوا۟	-412
▁صَ	-413
َاخِ	-414
كُونَ	-415
▁وَٱلَّذِينَ	-416
▁أُ	-417
▁وَقَا	-418
يَا	-419
بُوا۟	-420
أْت	-421
▁لَكُمْ	-422
كِي	-423
قُونَ	-424
▁إِلَى	-425
▁عَن	-426
▁ٱلْكِتَ	-427
وْا۟	-428
▁ٱلش	-429
يُّ	-430
نًا	-431
▁نُ	-432
▁إِذْ	-433
▁إِنَّهُۥ	-434
▁خَيْ	-435
وْنَ	-436
▁فَإِنَّ	-437
▁كُنتُمْ	-438
▁هُمْ	-439
بٍ	-440
لِيَ	-441
ؤُ	-442
▁بِأَ	-443
ُوهُ	-444
▁وَعَ	-445
عِي	-446
طِ	-447
ؤْمِنِينَ	-448
▁ص	-449
لِيمٌ	-450
يُو	-451
دُوا۟	-452
فُو	-453
▁أَفَ	-454
▁عَلَيْهِمْ	-455
▁ٱلْبَ	-456
▁قُل	-457
كَّ	-458
▁نَّ	-459
طْ	-460
مَلُونَ	-461
ُوسَ	-462
دُونِ	-463
َّلَ	-464
▁فَلَا	-465
ِيَ	-466
يُّهَا	-467
▁عِندَ	-468
▁رَبُّ	-469
▁ٱلْكَ	-470
هَآ	-471
▁لَّا	-472
دِينَ	-473
لِهِۦ	-474
عُوا۟	-475
▁ش	-476
▁أُو۟لَ	-477
دٍ	-478
▁أَهْ	-479
كُل	-480
▁فِيهِ	-481
بُونَ	-482
▁وَأَن	-483
ٌّ	-484
▁وَلِ	-485
▁بِٱللَّهِ	-486
▁وَيُ	-487
▁حَتَّ	-488
أَيُّهَا	-489
▁إِنِّى	-490
▁وَكَ	-491
هِي	-492
▁وَمَآ	-493
لَىٰ	-494
▁دُونِ	-495
▁ن	-496
لُوٓا۟	-497
▁سَبِي	-498
لٌ	-499
دٌ	-500
رُو	-501
شَآءُ	-502
رْسَ	-503
▁يَسْتَ	-504
هُۥٓ	-505
▁ٱتَّ	-506
▁وَلَوْ	-507
ؤْمِنُونَ	-508
نٌ	-509
▁كُلِّ	-510
▁يَتَ	-511
▁وَنَ	-512
▁رَّبِّ	-513
▁ضَ	-514
▁وَلَقَدْ	-515
يْنِ	-516
مَّ	-517
قِّ	-518
زُ	-519
▁وَإِذَا	-520
سَا	-521
عَلَّ	-522
وُ	-523
▁ٱلظ	-524
▁قَدْ	-525
كَانَ	-526
رِّ	-527
وَا	-528
▁مِنۢ	-529
غْفِ	-530
▁يَن	-531
خَا	-532
▁فِ	-533
كُو	-534
ئْ	-535
▁مَعَ	-536
َاخِرَ	-537
ِىٓ	-538
▁إِنَّا	-539
▁مَآ	-540
▁ٱلنَّ	-541
دَا	-542
▁ٱلدُّ	-543
لِمِينَ	-544
▁ٱلْجَ	-545
وَّ	-546
▁أَجْ	-547
▁قَبْلِ	-548
خُ	-549
▁وَهُمْ	-550
▁بَعْدِ	-551
عًا	-552
ُّونَ	-553
▁ٱلدُّنْ	-554
رْضَ	-555
▁دَ	-556
▁ذ	-557
طِي	-558
شْرِ	-559
لَّآ	-560
▁يَوْ	-561
لِينَ	-562
▁وَٱلْأَرْضِ	-563
ظِي	-564
لِح	-565
لُو	-566
▁فَتَ	-567
▁عَلَيْكُمْ	-568
▁ٱلدُّنْيَا	-569
▁يَقُو	-570
فُونَ	-571
▁سُ	-572
غَيْ	-573
▁أَنفُ	-574
▁وَمِن	-575
جَا	-576
▁بَلْ	-577
▁يَشَآءُ	-578
مِنَ	-579
قَوْمِ	-580
ضُ	-581
ـَٔ	-582
ىَ	-583
▁طَ	-584
▁ٱلْخَ	-585
▁فَلَ	-586
ُّو	-587
▁فَإِ	-588
▁لِلَّهِ	-589
▁لِلْ	-590
ضِ	-591
▁نَفْ	-592
لْنَ	-593
▁ظَ	-594
▁أَكْ	-595
ُّوا۟	-596
▁ٱلْفَ	-597
▁قُ	-598
هِۦٓ	-599
هِم	-600
▁فَلَم	-601
▁تَحْ	-602
تِى	-603
إِ	-604
هُمَا	-605
▁قُلُو	-606
▁مُّبِي	-607
▁وَمَ	-608
ظُ	-609
▁وَقَالَ	-610
شِ	-611
▁وَءَا	-612
عْمَ	-613
إِن	-614
▁ٱسْتَ	-615
▁عَلِيمٌ	-616
ًۢ	-617
▁إِلَّآ	-618
▁مُوسَ	-619
دَىٰ	-620
فِرِينَ	-621
▁كِ	-622
عَا	-623
يِّنَ	-624
▁ٱلْقُ	-625
قًا	-626
ءَ	-627
▁لَوْ	-628
▁كَيْ	-629
▁ٱلْقَ	-630
▁ٱلنَّاسِ	-631
▁غَيْ	-632
ثِي	-633
▁يُو	-634
َاخِرَةِ	-635
▁يَخْ	-636
عُو	-637
▁وَبَ	-638
تِنَا	-639
تَا	-640
▁خَلَقَ	-641
▁لَعَلَّ	-642
▁يَفْ	-643
ًى	-644
قَّ	-645
▁أَنزَ	-646
رِى	-647
بَّ	-648
▁فَإِن	-649
ٍّ	-650
▁أَحَ	-651
حْنُ	-652
▁وَكَانَ	-653
ظْ	-654
كُن	-655
▁لِل	-656
▁إِنْ	-657
سْمَ	-658
▁حَتَّىٰ	-659
وَىٰ	-660
جْعَ	-661
جُو	-662
زَّ	-663
مَةِ	-664
▁يُؤْمِنُونَ	-665
ِيلَ	-666
▁س	-667
ًۢا	-668
▁ٱلْعَذَا	-669
حْسَ	-670
▁لَمْ	-671
▁كَذَّ	-672
▁شَيْ	-673
▁بِٱلْحَ	-674
حَا	-675
كَذِّ	-676
▁رَبِّكَ	-677
بُّ	-678
▁ٱلْيَ	-679
رُّ	-680
لَّذ	-681
▁وَٱتَّ	-682
▁ٱلس	-683
▁جَنَّ	-684
▁رُ	-685
▁إِنَّمَا	-686
▁ءَاتَ	-687
مُونَ	-688
▁فَسَ	-689
رْعَ	-690
أُ	-691
▁رَبِّى	-692
دِى	-693
▁أَيْ	-694
▁يَعْلَمُونَ	-695
▁أَنْ	-696
▁تَعْمَلُونَ	-697
لَيْ	-698
لَآءِ	-699
وَلَّ	-700
▁أَصْ	-701
صُ	-702
▁يَهْ	-703
▁يَأْت	-704
ذَآ	-705
▁فِىٓ	-706
▁رَسُو	-707
ئِن	-708
لَّذِينَ	-709
▁ٱلسَّمَآءِ	-710
رَكَ	-711
▁كَذَٰلِكَ	-712
هَنَّ	-713
▁لِّلْ	-714
▁هُمُ	-715
▁عَلَىٰٓ	-716
▁إِلَيْهِ	-717
ذٍ	-718
فًا	-719
▁أَلَمْ	-720
▁لِيَ	-721
وٰةَ	-722
بِينَ	-723
غُ	-724
مُوا۟	-725
كِن	-726
▁عَذَابٌ	-727
مِينَ	-728
▁ثَ	-729
ثُ	-730
▁ٱلْمُؤْمِنِينَ	-731
▁لَكَ	-732
▁فَمَا	-733
طَّ	-734
ئِذٍ	-735
▁خَيْرٌ	-736
▁قَالُوٓا۟	-737
▁فَلَمَّا	-738
لَمِينَ	-739
ذِكْ	-740
لِمَ	-741
▁وَقَ	-742
▁يَأْ	-743
▁بِٱلْحَقِّ	-744
▁فَإِذَا	-745
رَةٌ	-746
رْيَ	-747
▁رَّحِي	-748
▁جَهَنَّ	-749
▁يَرْ	-750
▁لَكُم	-751
▁بُ	-752
هُنَّ	-753
▁يَحْ	-754
▁مَنْ	-755
▁إِلَيْكَ	-756
مِلُوا۟	-757
▁أَرْسَ	-758
▁شُ	-759
▁عَنِ	-760
▁ٱلْإِن	-761
صَا	-762
نِىٓ	-763
▁وَسَ	-764
▁أَكْثَ	-765
▁سَبِيلِ	-766
أُو۟لَ	-767
▁عِبَا	-768
مُو	-769
تِهِۦ	-770
تُو	-771
▁أُو	-772
عٌ	-773
▁زَ	-774
فِى	-775
▁لَهُم	-776
▁يَكْ	-777
سِي	-778
▁فَيَ	-779
▁ٱلْقِي	-780
▁رِ	-781
▁قَبْلُ	-782
▁عَظِي	-783
رْءَا	-784
عَلْنَا	-785
▁كِتَ	-786
بْرَٰ	-787
▁ٱلنَّارِ	-788
▁يَشْ	-789
▁يَوْمَئِذٍ	-790
▁ٱلْعَزِي	-791
▁وَأَنَّ	-792
لِمُونَ	-793
▁أَتَ	-794
▁وَرَسُو	-795
▁نَا	-796
▁غَفُو	-797
▁فِرْعَ	-798
▁يَعْلَمُ	-799
نْهَ	-800
▁كَثِي	-801
▁تَرَ	-802
▁مِنْهُمْ	-803
▁قَلِي	-804
آءً	-805
ذْكُ	-806
رُوٓا۟	-807
ظَ	-808
خْرِ	-809
▁بِهَا	-810
▁أُن	-811
▁ٱلْعِ	-812
هِىَ	-813
تُوا۟	-814
▁كُلَّ	-815
بَتْ	-816
▁حِ	-817
▁وَإِذْ	-818
▁تَأْ	-819
▁وَمِنْ	-820
زَا	-821
▁هَلْ	-822
جْرِ	-823
▁ٱلشَّ	-824
وٰةِ	-825
▁عِلْ	-826
َّيْط	-827
▁كُنَّا	-828
▁نُو	-829
لِحَ	-830
▁يُن	-831
ئَ	-832
▁أَصْحَ	-833
قُّ	-834
كِنَّ	-835
▁كَيْفَ	-836
رَبِّ	-837
▁لَّمْ	-838
▁حُ	-839
▁ٱلشَّيْط	-840
يَّ	-841
▁ٱلْحَيَ	-842
نَا۠	-843
رُهُمْ	-844
يْنَا	-845
▁وَٰ	-846
تَّبِ	-847
▁فَمَن	-848
بِى	-849
بُو	-850
▁ٱلْإِنسَ	-851
ٱلْ	-852
وِ	-853
▁ذَ	-854
▁نَفْس	-855
▁ۙ	-856
فْسِ	-857
▁فَضْ	-858
كُلِّ	-859
لَآ	-860
▁أَبْ	-861
▁رَبِّهِمْ	-862
▁أَوَ	-863
▁وَٱلْمُ	-864
▁تَجْ	-865
قُولُ	-866
▁أُمَّ	-867
▁بَعْدَ	-868
ذِي	-869
▁هُ	-870
رَةً	-871
تِي	-872
ذُ	-873
خَذَ	-874
▁يَبْ	-875
▁يَدْ	-876
يْسَ	-877
▁تَن	-878
▁فَبِ	-879
▁ءَامَ	-880
قْنَ	-881
لَهُۥ	-882
▁ٱلَّ	-883
▁يُرِي	-884
عْبُ	-885
لِى	-886
▁مِنْهَا	-887
قٍ	-888
▁ٱلْمَلَ	-889
▁ٱلْمَوْ	-890
▁يَعْمَلُونَ	-891
▁صِ	-892
نَّاسِ	-893
دِّ	-894
▁ٱلَّيْ	-895
▁قُلُوبِ	-896
▁جَعَلَ	-897
يْتَ	-898
▁مُوسَىٰ	-899
▁إِنَّهُمْ	-900
▁تَعْلَمُونَ	-901
▁إِبْرَٰ	-902
لْيَ	-903
▁أَنتَ	-904
فَّ	-905
▁نَحْنُ	-906
ضٍ	-907
عْتَ	-908
▁ٱن	-909
▁جَهَنَّمَ	-910
هْتَ	-911
تَّخِ	-912
زِلَ	-913
لُّ	-914
▁رَّحِيمٌ	-915
ِنِينَ	-916
▁شَآءَ	-917
ىِّ	-918
فْتَ	-919
▁ٱبْ	-920
▁كُلُّ	-921
▁ذِكْ	-922
▁قَلِيلًا	-923
▁جَمِي	-924
نَّهُمْ	-925
▁ٱلن	-926
▁لِي	-927
▁لَنَا	-928
▁ٱلصَّلَ	-929
فُوا۟	-930
▁خَلْ	-931
▁يَسْ	-932
▁ٱلْجَنَّ	-933
▁يُؤْ	-934
▁ٱلرَّحْمَ	-935
لَهُمْ	-936
▁وَعَمِلُوا۟	-937
▁أَسْ	-938
كُمَا	-939
▁وَبِ	-940
▁سِ	-941
▁عَلَيْكَ	-942
شَّ	-943
جَّ	-944
▁فَكَ	-945
▁نِ	-946
قَوْمٍ	-947
▁حَكِي	-948
▁أَعْلَمُ	-949
نِي	-950
▁رَبَّكَ	-951
فِي	-952
َ	-953
▁	-954
ِ	-955
ل	-956
ُ	-957
ْ	-958
ن	-959
م	-960
و	-961
ّ	-962
ا	-963
ي	-964
ه	-965
ٱ	-966
ر	-967
ب	-968
ك	-969
ت	-970
ٰ	-971
ع	-972
أ	-973
ف	-974
ق	-975
ـ	-976
ى	-977
س	-978
د	-979
إ	-980
ذ	-981
ح	-982
۟	-983
ً	-984
ج	-985
آ	-986
ء	-987
ٍ	-988
ٌ	-989
خ	-990
ٓ	-991
ة	-992
ش	-993
ص	-994
ۚ	-995
ض	-996
ۖ	-997
ز	-998
ث	-999
ط	-1000
ۥ	-1001
غ	-1002
ۦ	-1003
ئ	-1004
ظ	-1005
ٔ	-1006
ؤ	-1007
ۗ	-1008
ۢ	-1009
ۭ	-1010
۠	-1011
ۙ	-1012
ۧ	-1013
ۘ	-1014
۩	-1015
ۛ	-1016
ۜ	-1017
۫	-1018
ۣ	-1019
۪	-1020
ۨ	-1021
۬	-1022
